01011101110100110111100011001011000101010011000011110111100001011000110001100100001101110001101000001011111001010001010001010110
01001011000101101111111100000011101001100111000001010011101100000110010011111100000110110100010100011011011011111001111010111110
10101011110000011110111100010010101101100110001000100100111000000100010100111010111010111000101100000011101100101100010100001001
00001001000000100011101110000000010111000111010010101000110111100100101101100010110101111001000111100111110000101011001001100111
00001010001011001101101000010001101011010010100111111101110110010111111100100010011100110100011000110011000000010011100100011010
10010001000100110011111001010010101100000000000001110100111110010000111111111001011011011100010110111010010101001011001001100100
00011000100001100010111111010101001110011001100000011110011110001010100010111100011111101000100011111010111110001101001111001010
11000111111111111110110111100010110010100011110010010110001000001101000010100111010011011010010011010010011101111001111101111100
11111100100011000000101111111111110111100101011011111100101101110010011101100111010110011101011111101000011001110011111101001111
11000010101111011101111001111001011111100110100011011000110110110011011111011001111000001110010001100100011010110100100000110111
01110111110100111001110001110011001010101101010101011111110010000110011001111001100100000011000100110011010110000100001110101011
01111101101000100100010001110001111111000111011010000000011000010101000000111000110010111011011000010101100110100100110100110110
11011110011000110111111011010100110000111110000011010001010110110100001010100110010010111110101111110011101100000101011001100001
11000100011100001010000010100110011111111001111100101001100001100110011110101111010010101000000010111101011101000010101110010001
11111110101001110100111100001111111001010100011010100110001000110100000100000000011000100111001010000010111001001010000101000011
11110101101010111001011111100111101111001100100100000111101101101001001010010101110010010001101101100101100100111101111000011001
10111110111101011110101101010011010110000111001010111100001111010100100001100000101111001101011100010111011001101011100011101100
01001010101101101011101000101111001010111111011011000110101010101110110110100000101010110001011100111110100000111000010000100001
10000101110010110110001110110101001110011111101001010111011011110110111001101111100111011010101010110101010111010001000100010110
11110010111101101001101101001011110101101110111101110010100111001010010100000011110000011111000111010000101011100110111010111000
10101011110101010010110111100110010011010001111101100010111101001011010100011011101010100100111110101011101101101010010100011001
00100110101000001111100101100111101101011011101011110111011100001101011001110101011001010111011111001101110001010001011100001111
00010001101010111010011011001110110111010111001110111011011111010011110011000110011110100010100001111110000000010011101111000110
01000010101000010001110101001101011111111010101011111011000101011011101010001000011110010001010111100100111000000110111011000111
00001100101011100011111010100001111001010000110001111011010010100010001101000001111111011011110011111010011011110110001010100001
10010000110011101110110111100111111000100100001111010110011000110001111011000011100001010111101110001111101000110000011001111000
10011010011101100100011010100101001110100011000111001100110111011001110011110010101000011011101111110100011100011100011010000101
00011110110101111011101011101101111111001111110010110100011110000101010100101000110011110011110111001011100100100001111001111101
10101100110011110010110001101001100100111001001110100100000100100101001001010000001101001100010110000111001111110000101110011000
11000000110111111110110000101000010001011110000111111111010001001000111011000010011101011001011001111001001000111110110111011100
00011010011110110000000010100110111101101111011011111010111011011100010011001110111110111010110000101010100010100001011011111101
11001101110110010110001111000101011000100101000010000101101100011010110000111111000100011111000010110011111111111000101110010000
01101100110011101011011101111010001100011111011000111110101111110110010010001010100111100101101000111011010010110111100000100011
00001011001010100001100011100011111101000001000111011101001011011100001110011100101000100001100010011001000100110011000111010101
11110100111001111011011011001001001010010001101010110000000101011111110110110001000011001001111011100101010101011010001011100100
01110110010111101010011011101101110101001000000000110101010000110001011100000111010100111011011001110011101011011111100010110000
11001111111011011010010011111110000001011011011011000011101111011101111010100100110011011000011111110011010111010100000101000101
10000111001100101000111100000000101001001001100010111111001011101110001100110110011000010111000010101101111100001000011000000010
00101001111000000001101011010110111011010001101000101001101111001101100110011001110011100010001001010011000111110100110101100110
01010101100101111001101101010100010101111100101110000110011000101100010010101100110000111010101011001001000011100101101000101111
00000100000111111100011111000010010000100000001011111011110101001100010101100111010001000001011011101100010110110111011100110100
10101110111101110000101110111100110011001000011001111111101100110111111100010001111110101000110101101010001110110111010110111101
10010001010010100011101100101100100011001100000100000010110101101001011101011000000011100011001011001110001110000101111010110001
00011001101111011111111000001100101000001000100011100010000100011100011001110111010100011001011011110010110000101010110010111001
10010110010011011001110000011111110000011000000111111101101101111010110011101000111100001111000000101111010011000000000010100110
11010101111011010011010010000111101010110100101001100110001010000110110001011100101101100111010111100011100100000101101101000100
10011000001010101001011110111111001111111101001111011011100111101001011000000011000010001110011011000110001000010010010111001001
00110010001101001010110010110100010000111111101101101001011000000000110011010111101000100101101100001101100000001010000111110110
11000110000111011010110001101101101111101011000110001111010110000001011110110101001101101001001111111100000100100110010101011111
00111001110011100110000000010000000001100000101111100001010101010101010100111000011011100111001111001101101000111001100000100001
10100011000010000011001110110011100010001001001110111000011000101111111100101111001000001010110011000101010000001111011001011111
01101010110000001100111001000110111110011100111010011001000000001011011101101101101111111110101110010001111011111100101000000011
01110010100010100010111110101111001101010111111100111010111101101101010100101001110010010000011001000110111001101001000010011111
00111010101111110100010101000100100011000100100001010000100101100010011000001101100110011111011111100101001100111000100000101001
10100001110101110001010000110011101000000011011000001100101101001101100010100101101101001100100001000010011101101000001110011111
00101100000011010011100100110111110001001101100011101001011011011100010100001010100010011000101001111001010000101010101111001011
10011101010001101111011111010110010000010000111001100000000001011010000010001010001110010000010000100001001101011110101101110010
01101101011010110110010000100111000010001000010011100111010000100001111001000000100010101100010111011100100110001100110000000110
00111101100111000100001100101001001001001001001010011000011000010100001001100001011110111101001100111001110111011111101010110011
10100101011110100100100111111111010001100000110001001111011101011010001000101000111101110010001100001000100100010111111110010100
00001110111010100010000011100101011110110011110000001001110000110111000111101010111101100100101010100010110010011010111000010010
10000011101100111101110100111101101001000010000110001100101110100111010111111110011011011010100001100101011010011111100010010110
11001111001011001001100011000011010001101100101110000001101000110011010011110001001100100010000001010000011100010010010001000101
11010001010110111010110101011001100101111010100110100111000010000000010100110000010001001101110000110100011000100001111010000010
11010001111001001100111001010111000110010110110110011111000101000110101000011101110010010001111111010110111001000010011010111101
01100000111100100011110000000010010101110010110111010001101000001011111101111001110000101001000110011010001000000101111111101001
00111011001011111101000111101111100110000011111100010111111101011101001100011011011101001101111111101001110100001001001001110000
00010010110000111001000110100001100110000000110010111010101000111000111011011100010001010110001100101101100111000100101111011010
10000000010100000100001100101110000011010111000001000010110000110110000010000010111111011101100000111101100000001101001110010011
00101100100010001000001101111010111011100101001110000010010001001000111101100110010001010000101000010011101001011011010001100101
01000111100110110110111011100000101000110000000001000111111110101001110110101111110110000010100010001100000100101000100111111110
10111000001000011010000011001011011011101101011101101000000000110010000111111000100010000011001010011110001000011101000001010110
10010001111010100110100010110010010000011010101001110110110111011101110101001001110101101000110110111000110010001010101010111000
10011001011010101010001011110001100110000011001000001110010011001001111000011001110100101000001011101110001011010111010101000001
10011000110011001011110011010001000111011100110011000011100110000010001100000000100101001000011010001000101101100000011010001110
11010001111111110111000011100010001000100110000000110111000110010000101101000001100010110001101000110100000100111011101101011111
01000011111010011010101111111101110011110110111110111001101111100010010101010110001101111111100110000001010101000000111000111111
01111001101100111100011100101010001000111101100000100001000111100011101010001000000011111011101100110010011101110101100001111000
01100101111011110101001000111101110111011111010110001101000001000001011111011100111101100101000011000011000110111011011111111110
00010010010010101010001000000110001000111110011000110110101111110101010100111101110000111001110101101111101111110111101010101100
00000011010011111101010101101100100111100110011001011100100000100001010011111100100000100110101110110001000011101110100000000100
11100011010010110101101000110010110001100011100110100100100000000011100111100000100011110010110101111010110011011010000111001100
01000010000111110101101111111110011011101110001101011100110101111111101010001100011110100000000110110001100110111111011111001010
01000000100000001111100101100010110000110010100011110001101100000101010101101111010111001011111011100011111001010010000000011101
11101110000011101111000010001110110111100101010111000000010010001000110110010010101001011101000000111000100010000110010011001000
00111001101111010001001111110111111101010001100101100010011010011110001010101010111011010011100010101100001111001011100110001111
00101110000010000111111011011101101111101111110001010101100110110010011011101001101000010100001111001001100111111001010000010001
10010000110000010010011110111101101101010111110110111000010001011011010110100000101010001001000000101100000100011101011001010111
11000111111100010010110011011101101100001100101110011111111100001000110110001001000110110000110101011010001010101111011001000000
00111111000100110111011000111101101011000000001101110110011101101110010100011000010011111011010100001101101010010111001111101110
10101111110111011111000110101100000000100011011100010111001101110000110001110100001011110101001011001101101010111100101000001110
01110011101000010101100101111011001101100111011000000000011001111111001011110011101000101110000100000001011000001100000111110011
10000010011000100000000011100001110001110000110110111101010110110011010010001101101100000010001101010110011101111000011100000110
10110011111111000011010111010110100101001001011110010111011110101011100011011011010101101010000100010001001010110010010000000010
01100001010110110110011001100101110100110011101100011001001001110111010100001111110110101000001000101001110000001000111000111101
11111100101010011000000100110100100111110011010011001111101000001000110010011101110111011110111101110100101010000001011100110111
11010111011000000100111010000110000100000110010000010101110010011010100111010111111001000111010100001011010110010011101010011011
01101101101010101101100000110110000010001010111111001010101000100001111000111110001000111111101111110100110101101100010100101111
00001111001100100101101000101100110001100100011001000011011100010001000010000110011011011000111011110010110000000110000111001010
11000110110111011011011110011011001110001011100011100100100110110111101000101110111110011001110011111000011001011110001110111001
11001010001011110100000010000011111100110101000000010101011101111000101000010100000011110001001000101011111010110000010100000111
01101010101101001100111010000101101000101000000111001011100110000101010001001011110101100100000111101001001001101001100010110000
10111111001000100111101110001010101010000111011100010000110010110000111010110011100111000111111010000001011010010011001000010000
01011001100111110111100011110001111100101011101110000000010110000011111111111100110101010001000111011011010110001101011100010000
11000111010001101011100010111111101000110111110011000011101110110101000001001101110110100000010000100111011010011100000101011101
01101111001111001110010001001101010110101100001100001110011101000100011001110110001010001111010110101111000100111000100101011011
10100101011011111100001100101101111010001000111010000110110110001110110100010001111011101110010000111100100100011000010001000011
10110001011111010010000011100111101001000011101111100010000110001001011001010000001011100111010011001101011100010110110100000110
00100011000001011000010111010011101011000000101000101000001100100111001111010001110100100010110010011000100110000111101111011011
00000011001011000001001100110011101000101001010111100101011001000000100000000110000101000000001100010000110001110010011111010110
10011110100110111011011011010100111010111000011000010111000001100011111101010101010011011010100011011111001110001101010101011001
01101111111011001111100101100110111111011101101101001001001000010101010100001001101100111101010000101011110111011101100011000111
10111101000001110101101010010110001011110000110101110100100001111001010100011100001001111001100010110110111111010110110110011111
11101100100010011100110100000000111000010111110011100100000001100010110101110100111110110111110000000011100110100110110000001100
01111001110000110001100000110001101100100011001111000101110101010100110011100111001011110110001000100101011010110100110100000110
11101101011001110000010010001010001001110111111011110010010001110011100010000111010101110011011011111111010100000010101100111101
00100100011101110111010110101001110011100010110000101011010011011101101101110100010001111100000001100111011111001011100110000110
00110010010111010110001011001111000101110001011101001011111100111101100110111011110110100101100001101010010000101001100100000011
00101100110001000000101110011000101101100111100001111110100101000011101001000101010111110101011001010000010100111100110010010101
00000000100100101010000010010100100010001101001100101000010011010010100101101100101100110110010101101010000001000111100011000111
00110001100010100110010011110101001001011111111111000001100000000101111000100100111110001011110100000010111001100110110111100010
10111011011110011111111001110100111000001111111110010000110111111101101110011100010000111000010001010011100000110011111101010111
11011110111101001011100110111100001101101101101111100000011011001010010011011001111100011100011001001100111111111100000011101011
01000011001111011101000100000011111010100100010101001010010110010011100100100110111111110011100100100101000110010001101011011000
00011001101110000100111110101101011110010001101001111011101001101010010101101000000100101110110001101110000111001011011110100101
00100100011111110111100011110100100101010101000001011011110101101111110100100111101110111110100110100001110011010100100010111101
10110010001011011010110000011000111000011010101000010010011001101101001100000101101010010000000110001000011001110110111011110001
01101001000001011101010000001010100111010000111101100000010000001101010100010000110010111110010010110101000110000111011100101110
00011111101110110011110001101110011000111001100111001001110110101111010111101000010111111101010111011100000101111011000100111000
00101111000100010010111101101000110010100111011111011100111011110000101011000101101110011100110101100010100011100110000000111111
11110001011010111010001101111000011001010101101010011111100101110011110101101111100010010001000001011001000010010100010110010101
01011101010010100110011001101110010011010001110110110010001010011101101110011100010101111100001111111000010011110110100100010101
11001101111100000101110100000100111001011111100101110010010110110001100001010101000100110101111011111111011010111000101000110111
11001001010001111010011110011100010001101011101011111111000111010101100110110100111000010000111010110101110100100110000110000000
10001001001111001101100001011011101000101111000000011100110101000001100100010101011110011111100100110110001011110111001111101101
11001111110111010001111100100010001111010001001100001101011010101111100100011010010110111110011000011001100010000001110101011110
01001111110110111111000011100110110101010010110010010110000010111001111111100001110001100010110110101100000111110111100011110101
11011111010111011101111110000000001101010010110100011011001110010111111101100011000100111011111101101101011111101000110011001111
00111111101001100110001111011001111110110111001000001000111001100001011001011000000000011111110001001010111001111011000001000101
11100110001011111011011100001001010111101011110010010000110111100111110001011110010010101011101100001110010100010101110101001000
11111111100111011101100101000110110110100110001111110011000010010010010111100000010101110000101011101100101000101110011101101110
01010111110011110101110110110000010100111100010000010110110011000110101110011000111011100001000011111111101100100011110111000100
10001111100001110100011011100001110010011110101101111010011001010011110001100010101001100100111101111101011111100010110001110101
10010001111100100001100110100001011101111110101110110001110010001011010110110011000000111100000011101011101011100000110101000011
11110110111111000100111101111010001001011011101001110011010011111010000111011110111110110111110001100000110101111100100101111000
00010100101000010100111000101011000111111011010101111011101001010010000011111100100100011110010010000100010101101110001111110001
00101100001001001101101001111010101100111111101000001001100000000001110001000001111011000011000011010101010111110000001101111110
10111110001011010100001111011110000001111000111111000010001011010000010101111100111110000110110111001111101010011011000010011111
01000010000010010111111000100100010110101111011101110011110101010100011111110100101010001101000001110000010011101100001100010100
11011011101100110110110100001001111110011000101110011101011100011111010011100011010010110011010010000101110101111100100111100101
10011010101010100110000101000110001101100101000001000010010000000011111000010110000001100000010110100010001110110110011111100100
11100001100010001100011010011010001101011111010001011011110101100111010010101110100100010100110001010010000010011010100011110110
10000101001001100101000011111011010100100001110101100110111110100001011101111101111000010101000111110010000100100001110001101111
10100000010010111101011010110100011001111000101001111111000000101001011101000011001101000111110000111011101000010011111110001101
01011100101000101110111011110011111101000011011011100000100100110110110101110111100010001101111010111001001100111110010110100000
01100011000000101110000010001101101111001000110111000001000110001010100001011000111111111101110000100100011110101001001000101001
01110001100100000100001111011000110101110011001011011000110000010011011000111110111111000011110001100100101101101101011101010111
01011111001110111001101111110000001101001010110000000100010110111000000000101001001000000101100111000011011001111011100110111001
11000101010001001000101010110011010100110000010110001110110111011100101001100111101110010010000100000111110110101010000101110110
00100010111101100110110011101011011110110100001000000101001100001110111101000011110001001000011010000011111101111101001111000000
11010001001101111111101010111101100111001101011011010111101101111110100110110111111000111101000101100010100100000111101111111111
10011111001011100001001100001001111000011110111101111111001001011000001100100101010000010000110100011111110000011011011010110010
01010101101010110101110011000001110111101010011010001101000100111110010000010110001111101000101110001011100011001001000001111011
00000101101100111101010100111110000001000111100001010110010110101100100001010001101011011110101110111101101110100110011101011000
01011000010010011011110111111001011011100010101010001111010101101000101010000010110000000101000110101000010010101101111010101101
01100100001011110111000100110010100100111110011010010011001010100111110110001101111110011100110000001010111001001101001111010010
01000111001110111010010000000110100100010100011100111111010100110110001111101010111101001001010100111101010111001011001111001000
01010011001000010111010110001101110101100101101011101110100100100010010001010111000101010011010000001100110110010110101110100010
01001110101100111010111111001001111111011001001010110000110010010101100100111100111001001001000110000101110101101010100110001110
01111100110100100100101000001010110001111111010100010011010111001101000110110001110100010000101100010111010010111111010000111010
10100100111111010101110001110100000111101010101010000100100110000010001110110010000011100101101011000110110011011101011101010100
11111011000010010011101110000011101101111001101011000010111000000101110001111001100110111111001101011000011010010011111011011000
01101101111110111001100111000010011111010011010100010100100111111100010001110110011011110101110011101110110111101010011010111001
10110110110001101111000101000101111010000000100111001000000110000000010010000001101010110000001101111110010010000001010010100100
10100011111001111111001000111111111011011110110100000110011101001010011100100110011110101100011010110010011010110011000001000000
00011101011000111110011101000010110111011111111111001000010101011101110101001111101010100111000101101110111010000001100011110110
00101100000111010110000111000110000111010101000010111111001000100111010100011100101001100000101011000101110011000010010111001010
01010101010011111100100000110000111011001111011010100100010101001001110111111010001010000110110011000110100010010111010001110101
00111110011111101111111011011000111110111110101111010010001100100001101100001110110111010001111101000001111001100111100011011000
11011000010100111001011100011110101010010001010011111101000010110100001110111110010010110011011101100100010010010101000111001110
01010100010111110110000011001011001111000011101100010101111010001111100100001110001000010110001011111110011000011010101011100010
00110100000000001000010010001101001110111100010111100111100010011000000110101101100001110101111000111001000100010111110100110110
10000010010100000001011011011010000111001001000111010100101111110010110101111111001001000101101011100000000001110011011001010111
01010000000001001101101000000101100111000101001100010011010001000001000111011010101010011111000110011111001011000100101001101001
11110101101110111100100000110010011011010011100010001100011010000110101100010101000100001110010100110000101010011010010100100101
10100000010101010111110111010110000111100011110011100111111111000111010110100110101011100100000110100011101011011001001101111111
11101000111111001100100100000011111010111101100100110100111001010010001100000010100011000011110000011001101110100010001011110001
11011100110100111000001100010110110111001011001010000010000100001111001010011001010101110010101111011001011101110111100110101001
00101011100101000010110000110011111010111100001010100001110011110101101011011001010000110001010110000101001001110100000110110110
11010111001010100000010000011001100011100001010000001001111100101110010001010111000010110010101001110101001011111110100101000000
11100011101001011010111011001110111100000001110111100011011111000101101111011111011101000011111011000010001011100111111111000011
10000010110111001011000011111000010011110100100111001111001111101000100001100000101010110100111010111001100111001000101100000110
11111011000100100111101111110010011100100111110001110100110000001001010100011010100111001010011001100100101110100000011110010110
11110001101000111011001110101011000001111100000011010101110111010000011101101001001001100010100000001111001011010001011110111001
00100110011000110010010110111000111100100000000001110010100011001110100011100011111011100000110110101100101011100110010000101011
01111100101111111011001111011010011010111101101110011111001011101101010111111000110000001101101010001100001001011011010110011101
01100011001001110011100111101101101001110111111001010011000011100110111000101100010000100101010111001110101000111010001010010100
10110001010001111011110110011010100110001001001011101110011011111110000010001000010101111011011001101010011110110110011001000101
11110000001001100101010000001001001101111101101010010111000111110010011111010111000001011110101001110001110111100110111100001101
01010001110110011111010010101100000110000001011011110000011001101001001001000011111010111010111011101011111000101010011000110111
01100010010111110001010010011011111100110000100011000010111001000110111100110010001001110111111100110100111011100010110110111111
01001101101010000111010110000101111010110000100110100111000011100111001001001111000001100100101111100000010111100000110110000110
11110010101110101000000001111100100100011000110110101110001001100100111010000101001100101101100111000111110110001001100001101101
00000100111010001010111011001011101110110111010111001111101011110111100011000011001001110011011101011010111100001000111101011010
01110100100010100111010100101100101100000101111001110011001001101111000101010111101010011110101010010000001101001111110101010111
00101000110001011000001100001110000100100011000101001100011010001110011101101000000111110111101111001100011010101110100011010010
10100100011001001001100110011000101101111100000110001001100110110101111010110111111010100010001010101001000011111111110111111111
11011111000000001001000000110010010000111011000011110111110110100111100011100110000000010101010001110011001111110110101001100010
10101101000100110001001100110111001110110110011011100110100111001001010011110101101011011110110101100101011010001110111111101100
11111000010000101001000000111101001001100001001110110110010111011000110001011101101111010100000000110000010000010010001001011111
11101100111011101010101101110110100001110010001010000010100101100100100010110011101111001001011000011001110111000010001000110000
00000000001010101111100001110101110001100101110000111111011001000010110111101110001101111011010001000010110000101010000100011111
11111110001001001010111101001010100001110000000101000000011101100110110010001001111111111001111101000000010011010111100111101101
10111001000011010110000011011000011111000000101001010101001001010000110001110001010100111001001110100101001110011011101000010100
11100001110000110011010010101110010111000011100011111101001000101110000110010110011110011101111001001101010100110110110101011110
00010001000110101111001111000111011010100001110011110000001010010111111110110010101101000101011001100111100100011000111010110101
01010000011111001100111101110010111101010101110101111000001000110111000111111101010000110111011011011000010111011101001011000100
00111001111010010011110011010000100010111010110110001101000110000011100111100111010000101000111101010010010111001010100000100100
01101001101111101100000001111111111111111110000011001110100110001101111010001100100011110100010001110110001100010101100011001001
11011010000011000011010001000111000001101001100111100110101000011111100100110000010001000000101100100100011001110111011001011111
01101000011010001000100100001000110100001000111011001011111111110111110111110111110101101100011101100010101000010000010100110111
00111101100001110110000111001001101010001100100110110100000110011110011110101111111100011000011001010111001000111000010000001111
11110011111100011000010000110000000110110101111010011000111011111110011010110100111011001101001111101001111101110111111011011000
11110000111111111001010000000001011001101110111100010010111101111101010000001100010011000100000010111111111101000001011001100111
10101100010000001010111000011010111011010000011101000101001101000100000101110011111111000010001100111010100010101100000011101110
00001010011000101010111101001101001110010111111000110001011110010011000001100001101100100100100011010001110000011000110011100011
01100001001001110011100100110110000001000110011110010110010100000111100100001011001110010010101011110110001101111001011000010100
11100101111101111100011101010110100111001011100111100100101000111001110010011100100111010110011111101001001101110100010010000111
10110111011110110110010011001011001001101101100001010000110101101100100110111011111111010100000101000011011111000000001111110111
01111001111001001001111001010010000110101110100011101000100110000000100101100111000001011100010100110001001100111011001010001101
01111110011000111101111011011100000100101111100011000000011010100011001000101000011101111101100010111001111001100011001100011100
01010001011010111110011010001100101100000101011001010111100000001011110100010011100111000001010000011011000111010111010010110110
11011100001010001101001111010000101101101010100001111001011011001010000110101001001011111011111011011100111010000011110001010000
10101001110110011010100100001110111010000100110110001000011101110110010110111101110110000010010010011111011011000111101000000011
10010110100010001101100011010111111000010001000111101000100010011000110111111100110010000001001011101001111011110011000111100111
01110011101110000011000101011010011000111110011010000000000000001011010101101010111101011001101010110111000001110110000010100011
11011001011101010101000000110001110001101100000000110100110001010000000001100011001000100011000011110101100101101010100110010001
01110100001011101110110000101001100101001001111000111010100110010110010011111110100001100001100001110100011111100111110000101000
01110000010000111000111001000101101011110111100011011000001001010001101111001011110001000111110010100010100000000001111011011101
01011011111101010010001011010011100101011110110110100011110010000010000111100100100101000101101111000100101100110011110100101100
01111000001111111011100001110100010110011010000011010111101001100101101111000110001111110110101111001010010111011010000110010001
11110010011011001100000111001010001101001001011001010001000010110001000111110100001001101100101001001100011000001111101100100011
11001110111101001000000111000101001011100001000110110011110001100100010110001111101101110110100101101100101101101100011011100010
01110010111000011010010100001110011000100101011110110110001100111011011111011100101000001111100011010010101111010101111010001010
00111001001100001000100010000100100101111011101010010000011101110100010000110000101011100001010000111101001010010010000101100100
01000010101000000001100101000011000101101010011010101111010000010101100111101010000110101111110010000011101001101010001011001001
10110111011110011110011110001111010101001011000001100110011110000100100000001001100000011001101011100100110011010000011001011101
10101000011010100100010001111010100100100110110101010010101111110101011001111000110010001000101001111111000111011110010011000001
10001110101001011111101100110010011001111110101111101110100101110110000111010100101100110110000111000000000000000110001000000001
11011000001101100100000100111110001000001001100010001101001111110010111100110100110101101011110110101010000101101110101100000100
01111100100010000100001101011001011001110001110100111001001110110110100000000111000111010110000100110101110010001010011111101010
01101111100010110101100110000011110100110011110101101011011001011010110011000000010000001011110101100001111001110001111010010010
00100010100111000100100100110001011101010011110000000011111101011100111100000001101101100001010010111000100011101101101100000110
00100000100001101110010110011110100011110011101010111000010111011100100010001001110101000000010101111001101111011001100111000011
10000101110100010111001011011011000110110010100100101101101100010010111000110000001001011011101100110001010111000010100011010100
01000000110011011011101100101001110000000110100011101110110011000001011111111100011010000111100100010010001101000010011110100000
01110100111001100110000101011101101100010101100101001111010101100001011100000101000110110000001110101100111101110011101110111001
11011011110000000100000100001000010101000011010011010010011001011000101101110001000000111010100100110000110001111000011110100010
10110011110011010010011110000110101101101001110001101011101011000110011000110101010000010001000101000110010101101111010101011101
11101111111111111110000000011011000011100011001101010011010010000100111110010110110001011101111010010101000111010001110010011111
11001110011111000011110001111100110101100100000000111111101011001000010000010010111110110100111111001001111001000001101010001000
01000010101011001100101100100000011010100000110010010011110111000111100100100101111001001001001111100001110111001010000001001011
00100010111110111110001000001101010000100001011011000100100001001101101010010010100011010110110111101001001101011010100101110100
10101000010101011100110000101101110101111000111010011000010111111100011110101111010101001110111100111000001001010110100100011001
01101110101001010001000000010001110001111100101110110001011111000011101000011010111010011110110100111000111001101111100100010000
01001101100101101100101110000100111010111110011011011001011001001110000000001011101000100111010110100101000101101001010000101011
10101101111011111010101100101000000101011110011100000000100100011101011010000100100110011111100010111001111000110001000110110110
00100101010111111001000011011000101100100011010100011011010101000101001001110100111000001011111011111011011001111001100000111000
10010100110100110010001100100101101011000011110011010000100010001101100111100101000001001110011010101001001011001101100110100010
01101010011110100101110010111001111001101000100110111110110110110010011100011011010011010001000110110001001011100101001011110010
11001110111000111111100011001101000011000001100000010100010010010100010110011110111001100110001101111011000011101101011010001101
01111111100100000010011011011010100110010101101010110101100001001110001110010011011101001110111111111110111001011101000101001010
00100101010001011000110111001111001101101001000000011100001111110010100010111110100111011101110001000101100000100011100111001110
01100000010010010110111100111100010111101011100110110111000110101111101101000111111000000001101110000111011110110100110101110011
11010111101100110100011001111100001101110000011100110010011110110010011000011101111100010100011010000110011101110001101101110000
00100010000110001001011001001101011011111010111001010111000110001011101010011110101011111000011000010001010111010010011110110100
11101001101000000010110110110011101110111011001010111001010011001101100110111101110110001101111001101101100010101101101101011111
00110101111000000000100100001000100101000000011000010011010001100001000001010000100111100001101111000100000010100111110011101011
10101000111110011111011001001010010010101001110111110000101001101101100000110100001101010001010110101011111110101010001100010100
11110010100001111110001000101000101010000111011100001010010110011110011001001110000001010000100100000101010001001101101010011100
01110110110110011101111010111010100001110110001110100001101001111010100010100010110100001010101110110011000110010100000111101111
01110000100110011001010011001010111001111010001000110001110001110100101110111100101101101000101101111110001110110000111110001010
10011111001111011110100000111111100100100011111111111001001100101110011110001000111101101010001111101100001110000011010011011000
01111001001010101111011111010010110011010111100111110000101100010010010011100011110110001110111011000001100000010110110001011100
10000101101100111110110100100000001001010001101010011000001010100111011110001111110100101101010010101110000010000011000110111000
10010110000010001100100101011001100101101011100100111101010100111001011110100111100010111111101000100101011001101010010001101001
00110010111100110110011001101011101010010101000000000001011001001000001001000000111011110000101011100100000111010000101011110111
11011101110100111000101110101011101010101010101101110100011111101100000101011101111100100000001110101100100010011111110110100011
01000001100011101010110110001100110000001000111011011111110100000110001101100100011101100100011101011110111101110000010100000000
00000000010111010101001101110011000000110100111100001111101101101011110101010000001011111110100000100101100001110000110100001011
00010100000010101111011000010000111101011111111101011111111110011111010000000011111010100011011111111010110000001111010000011000
10001001101111101100101110011001111010101011110001111001000101110011110111100101110001111100011000000011000000010111000101111000
01100111111110100101110010000100000010011100110001011001100100101011111101010001100110110000000110001001011010111001000110110111
00100100111011001101000010100100010101001110000111000000011101101111010100111101001010000111010100111011011000010101110000100001
00111111000011111010001000000011001111001000001010100101010010111001110100010101001110000111011001000110100100011100010001001011
00100001100001000101010011110011100001000010010100101100001000001000010111100011001100000000100111000111111101100011010100001011
10100100010110100011001001001110000111011000101110111001001101111101111001111011001011100111111000110111010000010011010001000100
01000100100000001001011001111110010010010010111110110101011010110001111111001001001011001101110000010001101000011110100000110011
10111110110011101001011100011101010011111100001001011101011011110110010111111011001111010100000110101101100101011100111010000110
10101001110101101010110011001000000010111110110100000111000000000111010001100111011100101010001011011100011101110111010001101110
01111011001100110000110010110110011010000000011001010000001000001110101110100110011000010110101011100111110001000000100110110111
10000111001011100100110110111000101111011111101001001001111000000010111111100010110001010000111101110100100110001111111101001110
00000001001001101000111001000101000101011011001101001100100011111101110110111111100100110111011111100110111000001100110111010111
11001000111100111011001100001101100101110101001100011100011100001010011001001001001110111000110110110100111110110001100001101001
11101010101101100100111000110110001001101000110011010111001100000110001110101101110100101111000110101111111100110100111010001100
01111110000110011001100001001010110101010100001101000101001101100010100111100000110010111011000000000101001101101101011011011111
11111000100011011100011011111110101011000110000011110111110111100111110000111010010000110100110011000001011011110010011011110110
00001000010001001000000100101011111011101001010000110001001101101010111001011010101001100010010110001110011111011001001110010111
01110000110110011101110001100001101100101111100010101001100101000000001010011101010111111101010011001100110000100100111111000000
11000100100101001010111010110110111111000011110001111100010111100101001000101110010010111111101110011001101111101010000101011000
00000010101111010001001011001110100010000010100111010010100010110110011001110100101111100010011110010110100111010111010110010111
01111100100111111010100010100101101010010100011111001111100010011001011011100110101110111111100001110110101001111100101101011101
01001011001000001100001011111000000010010000111011101110011000101100101010111111100101100010111101000011001110111111100111100001
11101011010100010001101010101011101001101011111100001000110001000001011110010110001111000101100000100110110001001111110000000001
00101101011000111011011111010001100000011100001101100110100111010101100101001011111101100100101110000011100000011110001000010110
10110000011110010010100001110001100101000001101011100000011101010011111111000001111101111000011001100101001011001001001111001110
00100101011110001111001000101101000010100011111101000100011110101000000000010001000111100110011001000110101110100100011000110000
00100010111001101100011111000111001010000000011111001011011000101110001111110100000100001000110101001010001001101100001010101001
10111111011100000000000111000100010101000111111111110011110001011100011101001010000011110011111101001100011010100000001101111000
11111000100011000001100000100011001101011100001111010011110101000000111111000100111110111110010111011001101100111001010101010010
00101011100011010100101000110011100000000000011101001000111100011110000100001101010111011110000100101101100010101100110101001111
01101110110000011100101011010110111001100010110010010100000101000101110101111011100110100001001111101110100110100100010001101111
01000001111001110010100100110111001000001101100001010001011110011001100010000110010100001100010001010010001010011100000010100000
11001110010000110011001001111101001110111011100110100111110111000110101101011101001010101110011010111010110110111001100110001010
11110001101110001000111000101101110101001110000011101000011100111000001111000001010010010011111011000110001101100110010001110001
00110100100011101000100100100000100010000010011110010110010111101010101000010101011011100101100100000010111000001011101010110100
01101100000111110111110000001001111000101110000101110101110101000000000000011000111100010010000010110010110010001000100001110011
11101010001111100000000101000010101110000010100011010011001101001001011010011011111000010011101110100100001100010011001100111110
01010011101111000110110110110101010011000001101010000011101110011101011110101000011001101100001001100101111011010010010101010110
10000110000110111010110001110101111100110010110010001000110111100001010110100010001011011111100001011100111011011001100010100110
00110000101110110101110001101100101011001001111110010111011000000000011000110111011011000111001101001001010111011011111110000110
00011000110011000000110000111010101000100010101101001100111001000111010100110001000001001010111011011100110111111111111001101101
10010000110001110111101100100101101110001001011010111011011100110101101100000100001000100100001111100000000110000011000010100101
10001011100000101000010111010000111111111001011100111000011100001010111001011000111001111101000010000010010100110000010001011001
11110001011000101000001001101011110111111000011101100010100101001000001100011011111100101110000010110011001011111001001101010100
10000001111101100010100001110001101000110011011100000111101101001011111010010010101110010011110101011111111000100110011100001111
11110111010011011101000100001111100010011001000000000101110000100001111100011101011100100111111001011000010111000101111111000110
11001101000011101111000110001000011001010000100010000010110000111011111100101111000100111100010111111010000110000100100010000101
11011010111111100011111001011111110011010001110011110010010111101001110110111010011101111011010110000101011111001001000110111111
10001010101111011111110101111101111010000010011101110000100001000001001101111010011011101011100111111011001111001100000001011101
11010010110101100100001000110001111011011111110011110110000000111111010101001110010100100000111000001010000110010110101010001101
00001001101010111000100111011101010001001101101101111000010000100111110101110010001111010001110011111111011100001010000101001010
01111100010111011000000000100111100010010001100100011110110011110000101100100010101011011001101001100011111100101111101111100110
01101111010001111000111010101110001010001001111110000101010111011011111011000010100111110111100100101101110011001010101110101000
10001000011111110101101101001101001110010110100101000001100010110010110011001001000001001010110101011010110110010111110111111010
00000000000111110010101011101001111001111111110100101000111000101110011100000000100010100011011111010110001001100010110000011110
10011011001100101010110100111011000000000101100000011011101000100110010011010001011001100000000001010100001101101011101101011110
01011001111110011111000000101000001111010011011011001110000101101100101100011010000001010111000110111000101111001000010101010101
10010111010110011101101111001000101101011001001101001101001000110010100000000100100110011101111001010100011100000111010011100001
10010001100100010010101000001011111101001000000001000110010111110101001110110100001000010101011001000101001011110111100101100000
01100101000100101010110010100111100001101110110001110110001001001000100000000011011100111101100100111100010011010010100001100100
11100100000111001110001010100001111010011001001111110101000110001010110101010001001001011011011011010110111100000000100101011000
10100010001001001111101011010001110110011101101011101011000011001000010100011001010001101011001101101101111100011101010100111001
01000110100111100011101000011011111001000100010111001011100111011111001000101010111111010010100001001011011110100100111010010110
10000000110110110001101100010100000011110001100000111001001110101000100111001001110100011100101110101000110100010100011101101100
01111001001011101011000010111000100000000100010000101010011110001000011100001111110101001000010100110010011000001100111100011000
00010111100110100000110100000110111010000100111111111100010000101110100010011100001011111110111001110000101111110011110010110011
11110110010111101100010101100010011000011011111110111001000101111000011101001100111101011110001010000010001000100111111001101011
01111010001111011100100111110001001000000001000001001000010110001011110011010101011000001111101100101101100111110101011010110010
01111011011110100100000111100000111111110101011100001000011000101001001100111010001011001101111101101100010110001010011110011000
10011110100100110100100001100111010001011000001010001100011010100101011010100001100010111000100010110111001000010101111001100000
10001101110001111011001000010111010101101000101001010011000011001010000001110110001011010110101010110011100111000000010001000001
01101010100100011100110111001001111001000111001000011111011110001100011001001000101011000001001000001110101110101100101011000011
00100011100101101000001001111011100011100110011000000000011111100000111100110110000101101110010011001001111110000000001000110011
11110100010011111111010001001001000001010111000101001010101000110001000001010010001011000000110100111001011111100011101101001111
10101011101110010010101111011000000011001000101000100000100010100011000110011110010111111011001001000010101110100000010101100110
01011101000110001111110110111010000110000000011111100110001100010011011000010110110111000100010011101111110000001101011010000011
00111111000111111101000000110000001111110001110111001001101001101010000110011101000011100110001110100010100011100000110001011011
11111001111100111010001000000001100000010111101001011000100000111001010100111111101101111110010110011100000101100111111010110100
10110110100100000001000110100001101100111011001010110010010111010010001011011000001110010100100110001110101100100001011110100101
01000001101100111001110011110111000100001110000000001110111011011000110000101001111101010110100111011001010111100010010100000011
10110111001100000101110101000001110111000011010111110110001111000101110010111110101100000000100000111000010000101101010101100010
01111000111011101101100010100111110101011100100001000000001100111001011110010010101011000011000000111100100001000101010000010111
10001010101100011000000101011011011001000111011111111010001010110110001100000001101010000011101110101100100101001001101110110110
01011100101110000011010010010111100101011111110011101110101111110011001111111011001110101100100110110011000001011101000111001111
00111101111100011101011010010001100011110111010101110001000010001100010111000010100000010110110100011111111100111000001110101100
00100011110110000011100011010111111101101010010010001100100001001001000010011100100001011111011101011000011011100010011110000010
00111110101110110111100101010101111000100110101101000111111110101100010111010011011011100111110100111100011100110111001111110001
00010100111110100111101001010000110001000011110111001111101111001010010001000111010101001000001100010010101110000011101010100010
00110101011000010010110001000011011011101000111011110011010000110011101000100011010001100010101110011100100111001110101111111010
00100010110111000110000001011100010110111010101101011100101010101111001000011000100101011001110010010001010100000010101100000100
10101101100101110100010000011111101110111000001011110000010101101001111000010110101010001001100011001100000111011011001001110100
01100000000101000100111101111001001000011011010001011101010100001000101011001000100111001101011110010100000011110011001000111000
10000111110001110011111100111010110001110110011010011111011000111011000010011001101000101001001101011111010100101011110001100111
10011100100111001111000110011011010011011011001110000111110100111011101001110001000000010111110011001110100000001101001000101110
01011011011111100011001101011011100001001110000110001001110000000111010010111001010011111010101100111101110111100011001111110011
00100100101110110110100001100001111000001101111000111000011110111011111110011111110111010001111010101011110001111000100001111010
00111101101001100010001000111001000010100011001111110001011110100111110010101010001101101101011111001010101011111101010111010100
10111000010101100101011010110010101010010011010101101001010100000010011000100110010100000101011101011010010100101001101100001110
11011111001101111111110000011000110111111011111011011000110101111111101011111111011101111101110001110001011101100110101111001001
00100111010001110000111000100101101010000111110111110010010111100101101101010110110010101101000110110000010011000010101101100100
11001011101100101111100001001010110111110101100001010010010011010111111110110001000001001111000100001010101000111111001010101101
10101011001010110110011111000100011011010110000101010101110110010000001000111100011101110001011010000001001000011101111100001001
01110100001110000010110000001110010011111101000000110110110010000101011100000110110011101010011110110000011100011000011001100010
10011101001110010110000011100111010011010101010001000010101010101000011110111101010011101101010000011000001001110011101001010100
10001110001110110011010111011101010100011110100000100110101011010010010110101011001000101001101000111111100100001101111111000001
11000010100010011010011100000011010100111011100111101001110001011010010001011111100001100111100110100101101110111100110110011010
01010111100111001001110110011111011111001101111100110010110110000000100111001010111100110000000110110111111101100011110000001110
11010100110110110010110110100110000100001001110010110111010010100111011111100110011010000110101101001000101001001100011000001111
10010010111011111000010101111100101010001101001101001111011010001101001110011110011010100100000001101001111110110001110000101100
11111111000101100011101100101101010101110000000100110100000101010000001001111101101111011001000010110001100001000101110110111110
01100100111000101001010011000010111010001100011000110110000100101000001001010111101100001100101010101011110001001101011100000111
10101101101001001110111100000000111110101101010100110000110011010110110100000001011101111110000111010110000010011111010001000101
00000111110111001001111111001001001100001100100001101001001111100001001101011110111101111100001100000000111111001110111111000001
00101110010101011001110001011100101110000111111100110110110011001101011111010101001110111000011100101100000100000101101011000110
00010001011111110110010010110001011001101111001111100010000001001110101011000111110100110011111100100010011001010011010101000000
01010000100111010101000101000000001100100101111010011000100010111100100110000101000010011110111101000010010100110101110000111111
11011001101000100100011111011011101101011111001110000001000111110000101011001011000011100101101011010011100110000110110100101000
10010100001111011001100010111100101110100101001000100101111100000100100010101001001111011101101010101001011011000000111001010100
01111010000011111100000000100001110001010000011101110101101000001010111110010011000010000101001110000000000001001111111110101011
10100110100010000111100111011010001100001010100001100000101011001101100001110110001110110001011111100111111001001011101101110110
00011001111001011110101101001111100111011100011000010111000111000011000010110000001101100101101110100011001001010011001001000110
01000110001010111011100011011101011100000101001110000110010101010011110010001101100011001010100100101100010111110110010010010111
10111110101111101001111100110010111111011000100110011001000010101010110010100001010101001000101101001001001111100001001011011100
11000111101101110111011010101101010111011011101100100110011010100100000000000001011001101010010100100101110100010110010101000111
00100010111111000011100110100111110111010110011111101010100110111101110101100010010011100110000000111001100111111101111001010010
11101000010011110011101110000010110100001101110011111001111111000011000110010111100010011101101101000010101111001111000000000001
10111010001000011111011000111000110010111110001001101110101001110111110001011010111100111010001100011111000110011111010011011011
00011110000011110010000001001100001011011100100110011101000011100001101110001011110001101101001101000000011101101011001110111111
10011101011100100110100010001100000011010111010001100101110111010100100011111011000111010111000110001110010110100110001010111101
00101111111000100011011011101111000110100111000000000101111011001101011010001110001011101011111101000110011111111010000100000011
01010100001110111001101110010100111101011110011010111001111010101001100000100000001001100011110101011111101110111101100111111111
11101011100111101110100010001110100001101001001110011110101011101110010010000010010011100110010101100000100101011101100001100001
11010010010111100000101000100010000010010010001011011110100100100000001011100000011110010111010101110110011010101111101000111010
11100000101110001011001011000000011011001110011111011101100101011100101110101111011001110111011111000010011001110000111000100011
01100011000110001011001010110111101100011010000111010100101100000001110101101010110111000001110110100111000110011110000000010110
01110011110101000101000010100100001111100111111000010110011000000010110111100010000000000010101100011110010110011001011001010111
10010000011001110100100100101100001100011100111110110011010101001111110110110001111111101001010001110100111011010010001001011000
11000001100010010101001110010010001000010001111110111110110100100111001111111001100001011101111100100010000111111101010010100111
11000011001010000101100110110001100100100000011000000011000011110101010011001100011010111110111100001000010000011001000011101111
10011110011110101100110011111110111101000011011111001100110110111111010110100110111101111000010001011010001111011010100001000011
00010101101011010010111011100100010100111110001110000010100101010001101011011000010111001110010000011101000110111001000100001100
11111011010011110111101111011011011111111010100011111110000010000110011010111010100111000011101000010110100010110010011110110100
00100011111101111000101011110000001010110111001010101010011011111011101011010010100110001011100000110101000101011101010010110011
01100111001000011010111111010101011000011010001100010100010111100011001111010010111110011001100100100000010001111110110101010100
00001101010111101110000101110100100110111111111000100111001100010011111111100101000111100001101010001111011111001111010111101010
01010011101110000011011000000011000100111100011010100000011100111001001010000000110111100110101101100011110110001000111111011110
10110111001011100111100100001001111100001110011011011101001111110010101000011011100111000110110110000011010110110100011000000111
01111110111000010111111110100100010001100111010011010001001010100000100101001010011111101101111010001100100111100001001100000110
01110110100101101111101100110010111110111100010011111101100010000010011111101001101000001111010000011101111111100111001110011101
11000001001101110001111101010010100001010001000100101000000111010000001111000100010001001001001000101011110100101111010010011000
11011110101110000010110001110101001110001000011001110100110011011001110000000000000001111000101011000110111000010011100100110011
11000010100110100001101000001000111110101101010010111011011100101101010100110111111111110011011010110001101110000101010001101110
01000100111011000111000111001100011001001100000110100001001010100001010011111010111000000100011101100000110000011011000110001010
11100001100011110110100111110010001010110110100001110110101000111001011010110001011001101100000001011010100100111101010001100011
10100011001101100000001101101010001111100011100101110001001101101001001011111110011011111010111011011011110010000111001001111100
10001011001111010010110101010010101011100001000000100000100101011101110101111011000010100011000001001011111010111011001110000110
11010101000010100000110111100111111001101110000011000010000100001011100110000101101111111011111100010000000111010101100111011110
11110010100010110100110100011111000100101000010110001110101011110000100110110110001111100001000100111001011010001101111100011010
11000101110010011100000001100100111111000101001111011111011011001100100101101000000000000111001100100011100100100000011000011000
11000000011010000000101100100101001001011001001100100011000001001010111010101010101001101111011001000100001000110100000011011010
00000001011100011100011100000001010101110100100010101010010101110010110000010110111011110101011111010000000000100111101111010000
11100001011011100110100011101101101001111010000110011111101101001011010111110010111010101111001011110000010100101100100001010100
01010101011001000100010011101011101110100101100001110011011111011111000111100010011100011011001011001110101000110010101111010111
01101001110101111000100101111011101001110010001100011110100011011001001100100011010000111011010101010100100101100001011010110000
00011100110101111010100111101010100100000111111101101001000001100101110001011101001000101101000111010101011001000011010101100010
00110011000111011110101110001001010000010100101010110101001010000010110110001000000111010101110010011111100011100111011001111110
10011001011000101001001100100101011011001110101000011111001110101110101110101000010001000001111011101000010111110001110111101111
01101000111011010101010110110001000111110100111100111001110111011000011100010010100001011111101000001111001000100000010100010100
00100110100111111110000111000000110000010100010010111100011100010101010111000110011011001100010000001111110000101110010010011011
00110101011010111101001100010110100111000100010011110010000000111010010011000110101011001001010000100010001000001001000110011101
01000011001011011111011111011100011100010111001011000101101010111111010110010101011011100010010000000000110010001000111101011011
11111000111100000010010000001100101001001110010110111010110010110110000111000110101111100000010110100110001110010111001011010010
00111101010111011100111101111010010011000100101100110011110011001111101110000101100010111110011110010011011101010101000110010000
01111111001011101001000011000111010010101100001001110010001101001101110001000111001001011101011001010111110100110001010010001000
00001111111010100010011010010101000001101011001100100011010010101111100000001111111100100001000110000011110111100001100001010010
00101000010100101101010100100100011000011111000011110110010101111111111111001110010111100111010100111110000001100111011110011110
10011110000010000100010111110011100110000011011101100000000100101010011011111000010000100110000100111100000011001111110111110001
10110111011111110110011110111011000111111001001001101100010000011111101111010101100001100100110111111010100001101001000100001110
00010010110111000101000100110000101011010000101011011101011000001101010011100000110100011110001011101110011010001111000110001011
10111101100110010111010111101001011111000100101110100100000111111001100010010001010000000001010010010101000001111011100111000001
10011110110000011111010000001010001011110101111100011101100010100111110001100001101111001011010100001000111001011011101111000101
01111111100000100000011001001101111110100100001000100001011001101101010100000110001000111101000010011011011111101000000100100011
11010011100010010010110100011000010001001011001111000000011001000100111000111111100010000000110011100010101001000000111100001101
11101101011110010111001010100001010111010011101111100011010010011001000000001100010001010001100011000000111000000010001101000110
01100110001001011100011110100101000110010101111001011000101011101010010101110110001011011110001110001101100001001001101001111100
00110100001000010000010000000111110111010110000010110011011110111010001111100000100110101101110101111001001000010001011010111101
01001100110111100000111100101111000100110100110111110000001000000011011001101001101001011001101001001100011111011100100100111011
01001111000101011110110110001000100110010000111111111110010111100000010110011011011100010111110001111011101110010000011101000101
11101010001010110101011100011111010011111010100011111011001110111010000111000000110011111101100001100000100001010010001100110000
10100001111110011000100110110100001000000111001100000100101101011111011010001001101001101001011001000010011110100101001101010001
10110110010110110000010100001111101101100110110111010110000010010001011100011001010111011000101000001110101110100010001011111011
00000011110111001100010100101011001010101101011101111011000111011011101101000110110100111110100101000010011001100101111100101111
11011101001011101000100010001111110100011001011011111000000100001010000000011101110110000110001000111010011000110011001010001110
11000111111100000100101100110100010111101000101010000001100000100011101001101101000010111110001110111000100001001010010110011010
10110111100110000001000100000001110100010111000110110010110010110110111110010011001111110100110000101101110000101001101110001100
01010110001110011000011010111100011010000001110111010110011001010010100111100011011010101000010000100011111111100010110110000100
01100001011100110011100101010101011010011011011001111010110001111010010101011010001010101100011110010101011000001111010110011000
11111001001000100110000011110000101100111000010111010001101011100001101110110100100111010111010111110011010011010000001000001110
01001101000001110000110000111001110000110100000010110111110001111110101111111111011011010010110010000010111110010000101011011001
11101110011001000000011001110000100010011110111111001001100111001000011111101100101100110001101101001010001001000001011011000000
01101000111101111010101010010010100111010001100000010010110111110111010101101011101001110010111111100110110100000110011011111010
01100100001101010101100111010011100100001011001111000000001110100010101110111110100000011110101010010100000100110011100000001010
10110001111110100110100011101111000100110011011100111011111111000110111100111110101110111110010001110011001101001001111111110111
11111110010100001010011011010011101100000110010100001001011010000011110111011000101011100101110101000001011000011100010011000111
11010000001000010011100000011001111001101100101101100010001011000000010111110001001101110000001001010001010001010010011000011001
11100011011110000111100110110010101110010010000011111001111000110111100011110100000110100100001101110001101011010011100001111111
01001010001100100001100110010110000110110110100001010001100101100000011100011101111010100100101111111001110101111111101110001011
00100110101000000111111011101010010101001110001101010000001110010110011010110101000100000000001011101010011111001000000000101101
10101100100111011111010110110011011001011100101001100101100000100011111100010101011001111110011001100000101110110011101111111110
11011110101101111101010111111010011111100011001011001111010000100010001001100010111011100100110011000111000101100100111000010010
01101000100011001001101110001001011011110100111010111001110110000000110011010010001010001111001010111001110000000111001101001000
01000011001110111101010011110111010010111100111111000011111101001000001010101100101010100111110100100110001110110011000111010011
01111001101110101001111011101011100011101001101011011111100100010001010010101110111001001001101100011000010100111100000001011101
11011110000110111111101011100011010100001100010111111000111011011000010001111010100100110100001001100100111010010110101001011000
00011001001001011101000100000110110010011001101100100000001100011100011101000111011100100111110111001011001101010101010100011010
11101000110010001001100101101101011001000100111000111101001010000000011011100111110010110101010111000011010011010101010110000011
11001010111100011010001100101000110010101000100011010011100110010110111101110110100011110111111111000010110011110101100001010001
01101101011111001011111101101110110010110100100100111110111101001101101011001000111111101111010010110000100101111110101011011111
00010001101100101100111000111100010100111111010101001111111010001001101000011101000001110111100110000001110111010011011010010100
00101110001000010111010110101000110100101101110111111011100100101001011110000000001100000100010011011001010110010100101011001100
01101111101101100011110101111110110011010110010101110011001000110001101001001101011001011011111100001000001101110000101010110011